09
1b
fb
60
de
43
81
56
dd
00
b7
1a
dc
4d
7f
ee
0b
0b
7f
1c
f7
e8
15
e8
fe
e3
2e
5a
ee
ec
f5
29
f5
09
cc
bb
26
d6
b7
35
37
9f
fc
ba
e5
7b
7f
21
f0
5b
f4
d7
c3
e3
f4
b7
25
1f
d9
b8
13
1a
0e
a9
d4
3f
03
dc
38
10
ef
ea
81
cd
05
e8
fb
fa
ec
09
1b
1e
cc
21
f0
62
7f
b1
c3
f8
d1
0e
64
1a
7c
5f
8c
81
9e
03
03
df
f0
45
25
0b
ee
56
a7
fe
26
dd
7f
14
d8
00
02
26
05
f9
24
56
9c
47
b9
00
88
09
65
92
40
4c
ce
36
e2
1f
1a
ad
08
f4
08
04
db
09
11
53
23
22
32
5c
05
18
e4
c2
f3
3f
d0
11
08
a9
d6
f8
49
81
3c
16
d6
11
0a
cc
31
fe
11
2d
49
34
fb
a5
fa
fd
0b
7f
e7
35
47
18
4c
c1
61
25
29
66
c6
f4
3e
e9
db
e4
f3
0e
31
3e
07
3e
ea
0f
2c
f8
09
0b
20
1d
14
f6
f5
11
18
d6
e3
12
a9
b8
08
b0
81
03
f8
de
0c
f8
03
fc
09
0f
0f
08
fa
06
07
f8
0c
f4
ed
04
ce
02
15
e1
e1
d3
1e
d3
17
dd
07
1e
7f
0e
3e
15
62
d6
15
fa
f8
f3
47
67
48
15
01
4b
ff
fd
4c
c7
17
38
fd
c1
6f
62
0a
f7
c5
c9
db
81
85
e6
c6
d6
c2
89
72
2b
17
cf
93
ab
e9
cc
ae
5e
54
e6
0f
ee
ec
1b
2d
15
58
20
06
7f
3e
f1
00
f3
36
04
01
90
4e
d4
ce
26
19
00
8a
0f
bf
fc
21
37
0d
49
21
e0
17
e5
bc
1a
3b
46
7f
18
0d
e3
2b
36
23
24
4a
e4
45
11
fc
d5
f0
fc
1a
17
f3
ff
0f
02
cd
16
26
06
12
06
15
15
e5
de
2b
fb
e1
dd
b6
df
81
c7
05
