04
ff
04
02
f9
02
fd
04
04
fe
01
06
05
04
fc
06
fa
00
fe
fb
04
05
03
06
00
fe
03
01
ff
01
03
fe
f6
fd
f7
01
fc
fb
03
00
ff
fb
fa
fe
04
fc
05
fe
fe
f8
ff
fa
fe
03
01
04
05
f9
ff
ff
02
02
ff
fb
ff
02
fa
06
f8
05
f7
04
03
fd
fa
fe
fc
ff
fc
fc
05
00
fd
fc
07
04
fb
05
f8
f7
04
ff
fa
02
01
05
fa
f6
03
fc
fb
fe
fa
f9
04
04
00
f9
03
05
03
fd
ff
04
03
05
f9
00
05
00
01
fd
00
fd
05
fe
f9
00
03
fc
fe
01
f8
ff
03
03
01
03
fc
fd
fc
00
f9
fc
f8
02
fe
fd
fa
fa
fb
fb
fc
03
fd
fc
06
02
04
04
f9
ff
fd
fd
00
03
04
fc
02
03
06
05
02
00
05
f9
07
fb
ff
05
fc
ff
03
04
fc
fc
fc
00
fa
fe
fc
fc
fd
05
02
fe
fa
03
03
03
02
00
00
00
06
fe
fd
fb
f9
fb
fc
07
f9
ff
fa
fc
ff
00
ff
fb
03
fc
06
06
03
00
05
ff
02
fd
00
01
fa
fb
00
02
03
02
f9
04
00
f8
f7
fa
fb
02
fd
03
02
fe
fd
fb
fb
01
fe
01
fc
fc
fb
f8
05
04
fd
fd
01
fc
02
f8
07
03
00
ff
00
02
f8
fe
04
fd
fd
f9
fd
01
00
06
02
07
ff
ff
fd
02
04
ff
fc
fc
f8
02
04
fe
fe
fe
fc
fe
ff
00
ff
04
f8
ff
f7
ff
02
03
04
00
05
05
02
02
ff
fd
03
f9
02
f8
fa
fa
fc
ff
ff
02
02
06
fa
fe
03
fb
ff
04
07
06
03
ff
04
06
fb
fd
fb
fe
fb
00
02
05
fb
fb
00
03
01
00
03
fb
fd
fe
02
02
05
04
04
fe
fc
fb
ff
fd
00
01
00
ff
02
fe
fd
f9
02
f7
fd
01
02
04
f8
04
fc
fa
04
fb
fe
03
fe
ff
fa
fe
06
ff
04
02
06
fc
fe
fc
02
fc
ff
fb
ff
fa
fe
f8
00
00
f9
00
fb
fd
fe
00
06
05
fb
f9
fd
fa
07
fc
00
06
02
ff
01
fd
fe
ff
fd
04
fc
fc
04
01
fa
fd
fa
ff
fa
ff
05
fe
06
03
f8
04
01
02
fe
07
fd
fc
f8
f9
fd
02
03
00
00
03
03
fa
01
fa
ff
03
ff
f8
00
06
05
f9
01
ff
00
02
fe
fb
00
02
04
03
05
02
fb
fb
f8
fe
04
fb
05
05
fa
05
00
f9
03
fc
ff
fd
fd
fd
f8
fe
06
00
fa
fa
07
fd
fc
fc
ff
06
fd
ff
fe
01
f8
02
fa
01
04
00
f7
04
fb
fd
f9
fb
05
06
01
fe
02
fb
05
00
fd
06
fd
f9
05
01
fd
ff
00
fb
fb
fe
f9
01
fd
fa
ff
01
fb
ff
01
f7
fa
01
06
00
02
fd
fa
fa
00
fb
01
02
05
fa
01
06
00
04
fe
fe
fd
f8
fb
fd
fc
ff
fa
f9
04
ff
03
fe
07
f9
fd
01
01
05
01
04
fc
04
f8
04
ff
f9
04
06
02
fc
fb
06
02
f9
00
f9
f8
f9
03
fe
f9
06
03
00
fd
fe
01
ff
fe
00
fa
fe
ff
f9
fe
02
fc
fb
03
fe
01
00
02
f9
fb
fa
07
fa
fc
f9
01
ff
02
07
fb
07
02
01
00
03
fa
04
03
00
fa
04
fd
07
fa
06
fa
ff
fa
06
fd
f8
fb
f9
fe
04
03
fc
06
fb
fa
06
03
fe
fc
01
06
fc
00
01
01
fc
fd
01
06
fe
04
f7
01
ff
01
03
f9
fe
fc
fd
fb
fd
fa
05
fe
fb
01
fc
fc
fc
fa
fb
fe
fa
fd
f8
fc
00
03
fb
fe
ff
04
fc
05
02
f8
03
fc
00
03
04
04
ff
fc
fd
05
04
fa
f9
06
03
06
04
04
05
fa
ff
06
fa
fa
fd
05
02
fb
fd
04
fb
ff
03
fa
f8
02
05
01
07
01
fc
00
03
02
fd
fc
fc
00
05
00
fd
fa
fe
ff
fc
05
01
f7
f9
fb
01
02
00
00
03
ff
f8
f8
fc
04
04
06
05
fc
ff
fb
05
02
02
ff
05
fd
fb
03
fb
fa
04
03
02
fe
00
00
fd
fe
fe
06
fc
05
ff
fc
fe
02
02
07
fd
fc
fc
02
05
02
00
07
ff
02
02
01
00
00
f9
03
fd
ff
fa
fa
fc
03
06
fc
fd
01
fa
ff
fb
fe
fa
04
00
fd
fb
00
05
03
fa
06
fe
f9
02
f8
02
ff
05
04
01
fa
fc
fa
04
ff
07
fa
ff
fb
01
ff
01
fc
fc
f8
03
ff
fd
f9
ff
fb
00
00
fd
ff
02
fe
04
f8
05
fa
06
03
f8
00
00
06
05
fd
03
fa
02
fd
fe
02
fd
fa
fb
fd
06
00
f8
fe
fb
fe
03
ff
fa
fa
ff
02
04
06
00
ff
fb
f9
06
fc
fc
05
f7
ff
ff
03
00
fd
00
f7
00
fc
fd
04
04
fb
f9
fa
04
01
f8
01
f8
fc
fc
fb
01
06
fa
fa
02
04
f9
06
00
06
ff
ff
03
fa
02
fc
01
01
03
fd
02
03
fd
01
03
00
fd
fa
06
fc
04
fd
06
01
fd
fc
fa
fb
03
fa
ff
fa
fd
03
ff
f9
f8
f9
01
03
02
03
fb
03
fc
01
fa
fa
fc
fc
f9
05
00
04
06
fd
fe
06
fa
fa
04
fc
06
01
fd
03
04
03
02
01
04
06
07
05
ff
f9
01
07
ff
02
06
ff
02
f9
02
ff
fd
fb
fb
fb
06
05
fd
fb
06
03
03
02
04
00
f9
fa
04
00
01
04
03
01
fc
04
fe
00
fc
fa
fa
fa
f9
04
fc
ff
fc
03
ff
02
02
02
05
fb
02
02
02
fc
f8
f8
fd
02
02
00
02
fa
04
04
03
ff
f9
01
ff
00
ff
04
06
00
fe
04
04
03
03
04
07
05
fa
fa
ff
00
fa
fc
01
03
03
fa
02
01
f8
fa
05
00
fe
fe
fa
02
05
fb
fe
fb
03
03
fd
00
fa
f9
fd
fd
fb
fd
ff
ea
02
03
00
06
03
08
05
05
02
11
09
0c
07
16
0d
e1
ea
e3
e1
02
13
06
11
0b
f6
01
fc
02
02
09
02
06
06
0d
0f
0f
04
fe
e9
0d
0f
fe
0d
0b
02
fd
f7
fc
fa
fa
00
09
09
f8
f9
f8
fe
0b
03
04
0f
07
02
0d
00
0a
0e
0f
02
0e
14
03
fa
fb
f7
f6
f4
0e
1e
08
0a
03
0a
07
04
0f
11
ff
06
0f
f9
0a
12
15
0a
10
f9
f4
02
08
03
ff
17
02
0d
07
11
0c
1d
0d
12
10
01
ff
08
fb
f6
06
14
23
11
18
15
04
08
01
f8
10
16
f9
1a
1a
f7
02
09
f0
f7
06
18
f4
fc
0d
1c
08
04
09
09
11
07
01
06
10
f7
03
ff
df
e9
f3
2d
ff
04
03
06
f9
06
0b
e7
ee
f9
0d
28
ff
f4
09
f9
07
00
f1
0d
13
10
03
f9
19
01
13
12
fc
00
05
07
f8
f8
0d
dc
ef
f1
00
0a
f2
0f
0d
06
e7
fe
07
01
08
07
f8
ff
e4
d3
ed
0a
ff
ec
ea
08
f5
f1
03
07
f8
0d
0f
05
0e
00
e8
f4
f5
f1
f3
08
0b
e9
e4
dc
f6
eb
ea
e0
f8
12
08
fe
0c
10
ed
f0
ef
07
fb
eb
fe
06
f4
ed
f9
0b
f9
ff
fd
08
10
f0
f8
14
e6
f6
fa
f0
0f
11
fc
02
0e
e9
db
f4
0b
fa
ea
ed
ef
df
06
ed
dd
f8
03
1a
1c
0b
17
20
17
f1
ec
db
e1
f2
e9
f3
ef
f0
ee
f2
f4
07
01
06
02
0b
26
23
00
f7
11
ef
ee
f8
f5
f2
dc
df
d1
df
f6
05
03
04
0e
03
25
1f
1e
fa
fb
e9
ec
f4
eb
f1
e7
e4
e3
e8
04
f9
fa
eb
16
01
0b
19
14
0a
d8
e8
ee
f3
e1
df
f3
f0
01
03
0a
0d
06
08
0a
19
13
18
2f
10
13
10
dd
d2
e1
e4
d8
f3
05
f9
e6
fb
01
08
d9
18
27
05
0b
f6
df
fb
fd
ff
05
ff
fe
0e
00
06
f5
02
01
f6
ff
03
02
fb
18
e8
f2
fc
fd
13
09
06
1c
09
fd
0c
0c
11
fb
11
02
f6
f8
f6
03
ef
f8
e5
e6
de
e1
fa
f6
00
08
07
06
f5
f4
f0
fb
09
ff
1e
1a
02
fe
fe
e5
ff
0a
fe
03
fa
f2
f6
f3
02
f0
fb
ff
f7
e8
fa
00
ee
02
f4
fc
0d
05
03
f4
f7
f0
f2
f4
fb
ea
e7
eb
ed
ed
08
f9
e8
fa
f4
0b
08
f3
f7
e4
e2
eb
fb
ef
f2
ff
03
f2
ee
fa
0a
f3
f5
fa
f9
06
0a
12
ff
11
02
f5
f6
f3
fe
08
fb
f5
f7
ee
f3
fb
fa
f8
00
05
04
f3
02
03
03
f9
eb
01
00
0f
0e
05
08
01
fb
08
05
0b
10
06
fa
03
05
0f
fb
eb
ec
fb
05
0c
09
fb
f4
0a
0e
1a
f3
f7
f0
f8
fe
f1
02
fa
f6
fb
ef
fe
12
08
08
1c
1f
20
14
1a
fd
00
f1
0b
0e
1d
0d
f3
fd
f3
ee
04
18
08
14
20
1c
0f
19
2c
1b
08
02
fa
00
fe
f7
fc
fc
e2
e5
06
20
25
2e
26
21
00
3a
33
28
26
16
f5
03
09
05
f9
fa
f7
00
19
11
1f
16
21
0e
19
29
32
47
0e
10
ff
fc
11
f8
f9
f8
eb
fd
05
02
01
15
08
04
18
1f
29
3d
1e
1a
12
11
11
f9
03
0a
01
f2
f8
12
16
1e
07
19
2f
2d
36
18
0d
0f
09
05
0a
05
fc
00
00
05
fc
f4
06
04
02
0c
16
18
1f
19
15
f1
fb
ff
03
0a
06
fe
0c
fb
00
f7
08
fb
07
f9
fb
fc
07
fe
00
08
fa
00
0b
1b
1c
0f
06
f0
f0
ff
11
06
07
fb
07
fa
f0
d2
02
00
08
0c
1d
18
1b
0e
0e
0e
04
ff
fc
ed
e7
e7
e9
f7
d8
cc
26
07
10
03
fc
fd
0e
0f
09
f8
f0
0a
02
11
de
d8
de
06
e0
ce
fa
01
05
f7
01
fb
f0
15
fe
fe
d5
07
01
2a
12
d3
27
0e
fc
03
02
ff
f8
eb
ea
ce
d2
ea
e6
cf
d9
f3
05
23
c7
ee
2c
f3
e9
f5
0f
08
fd
dd
fe
ee
d3
d8
d4
c5
d1
e3
08
fc
e4
f3
fe
f1
ee
ff
13
0d
0a
fb
1c
19
11
02
1a
f9
ed
db
f7
e6
e9
de
f8
df
e7
f5
20
17
04
e6
fc
1d
09
ef
10
38
15
e6
f1
ff
f7
e4
03
00
ec
f0
1a
22
17
16
18
12
0f
e9
f1
21
ff
ec
fc
f7
f4
e9
f1
03
f8
fc
01
14
0e
04
13
1e
0b
13
19
f9
ff
0e
f8
f4
f7
09
0c
02
02
17
f1
fe
00
f1
13
01
12
24
04
05
11
00
00
09
0d
ff
03
0b
09
0c
06
15
06
13
01
f9
ff
07
04
1b
08
f2
05
05
f9
fd
01
0a
0a
12
2d
15
01
1a
08
0d
fe
0e
0d
12
14
07
fc
ea
f6
f7
f8
f5
fc
04
f4
08
03
09
08
13
f6
fc
07
3a
45
12
f8
f2
00
f9
fa
fe
fd
06
f1
f7
f8
12
08
0e
ff
0f
28
18
fd
07
05
ea
fc
fe
07
fb
fa
09
ec
fb
fb
fd
09
0f
24
fa
1e
11
fb
06
fa
ec
e7
09
00
fe
0b
12
ec
e6
ee
09
f2
0d
12
f0
0f
fb
f7
04
fa
f0
f9
00
01
11
0d
1a
08
e6
06
1c
ff
f0
df
0c
03
f6
08
f6
fc
09
08
09
f3
07
12
23
09
00
11
f1
f6
f5
eb
e6
dd
05
fd
ff
08
01
ef
0d
0f
0f
09
15
e8
00
0f
10
09
0a
07
ea
e5
00
09
f9
08
07
09
06
05
05
03
14
f3
fe
15
15
fc
1e
08
e2
e7
e5
07
f7
05
07
08
03
04
0b
fd
29
e8
fd
08
01
04
0a
0d
0f
e7
fe
0c
06
fb
0e
0d
18
07
11
09
16
f6
f4
06
e8
16
14
18
1b
15
11
0b
09
f2
fc
02
fc
f9
f7
fc
f4
01
f9
fc
03
04
fc
01
fb
f9
fe
01
fd
00
fa
fc
02
f6
03
fa
fa
fe
05
03
ff
00
03
01
fd
fe
03
f8
fa
02
01
fc
01
f6
ff
fb
05
02
fb
05
fc
fd
ff
00
fa
fc
04
fa
fe
01
f7
fc
fa
ff
01
03
07
05
fc
fd
02
00
06
fd
fa
f6
f9
03
fc
fa
00
f9
fa
fa
fa
01
03
00
01
fc
fd
fb
f8
fc
02
05
ff
fb
fa
f7
fc
fd
ff
ff
f9
fd
01
fd
f9
fd
03
f9
02
fe
02
02
00
fe
00
fe
fd
01
fd
f9
01
03
05
00
f8
fd
04
05
f9
fe
01
fb
fb
fe
00
fd
ff
fc
fa
fe
fe
00
02
ff
06
fd
ff
f8
fd
fe
01
04
fd
05
04
04
08
fa
02
04
07
fb
fd
f9
fb
01
fc
fe
fb
03
fa
fb
00
ff
04
01
fa
05
fc
06
05
00
fd
f9
00
03
fb
f9
fa
01
fb
01
fb
03
ff
f8
05
02
fb
02
03
03
07
fa
fc
01
04
fa
02
01
fa
fc
fc
02
02
03
04
fb
f9
fd
01
fc
00
01
f8
fd
03
01
fc
00
06
02
fe
fb
f7
fa
f9
04
fb
05
fa
fa
02
02
01
01
07
f9
ff
05
05
fa
00
02
01
fe
fc
06
07
fd
02
00
fd
fc
fe
02
07
fd
fc
f9
f8
ff
f8
f9
04
fd
01
01
04
04
f9
fa
fa
06
ff
fe
fb
07
fa
01
01
fe
fe
f8
03
01
08
fa
ff
fe
06
fc
04
f9
00
f9
02
07
fc
fb
01
01
04
01
f9
fe
fc
00
04
fe
03
06
fc
f9
04
fd
01
08
ff
09
ff
02
02
04
04
03
01
00
05
05
fb
fb
f9
ff
fe
fd
05
fb
04
05
05
02
fd
03
05
fb
f9
f9
fe
03
ff
01
06
01
fa
ff
00
fa
00
fa
fe
00
01
02
ff
ff
fe
fe
03
fc
02
fd
fc
fd
01
fd
fd
05
fd
ff
05
fa
fd
08
fa
06
ff
00
f8
05
04
fe
01
fc
05
fc
02
02
04
00
f9
fa
f9
02
fa
fd
00
fb
05
00
06
05
00
06
f9
fd
02
04
fe
f8
ff
04
f7
fa
fa
f7
f7
05
01
fe
05
05
fd
fc
05
03
03
f9
fa
fd
05
fb
f7
01
fc
f9
02
02
04
f9
f9
fe
00
fb
04
fb
fa
05
ff
fd
f8
ff
ff
02
02
fd
00
04
fd
f9
fe
03
02
fb
f8
03
fd
fb
fb
04
01
f9
ff
fc
fd
02
02
fc
fd
04
04
fa
07
f9
05
fe
06
fb
fb
f9
ff
00
04
fa
01
ff
f9
00
fb
f8
ff
f9
fd
ff
00
03
fc
fb
f6
f7
fb
03
03
fe
02
fd
fa
fc
02
fc
fb
02
fd
03
05
03
01
01
02
f7
fc
00
04
00
fb
fb
fa
04
fc
01
fd
f8
fa
fa
02
f9
f8
fc
fe
fb
fa
03
fd
fe
fc
fa
fd
fd
fc
fe
00
02
01
ff
01
02
03
ff
02
ff
03
05
f8
f8
05
01
f7
01
02
fa
fa
02
06
05
02
fa
fc
f8
00
f7
f8
f9
02
fb
fa
02
fc
f9
04
f9
fb
fb
fd
02
f9
fd
fd
f8
fb
fd
fe
04
fc
00
ff
03
f8
04
00
fd
f9
f9
fa
fc
00
02
01
00
03
03
f6
fc
fb
f7
f8
fe
03
fc
fe
f9
fb
fd
00
f8
fd
03
fd
f8
00
fa
01
03
fa
f8
fb
04
f8
02
f6
fd
f8
00
fe
04
fc
fa
00
fc
01
00
f7
fa
f7
05
01
fb
ff
00
fe
f9
f7
05
01
fa
04
04
02
f7
01
03
f8
04
00
03
ff
04
02
02
f8
f7
f9
02
01
fd
fa
fd
fe
05
03
fe
fc
f9
01
01
00
00
f7
fe
fd
05
fb
03
04
07
fc
fd
fb
fd
ff
f9
ff
fb
05
00
ff
f7
fd
f9
fe
fc
05
05
04
fe
fa
04
fe
fe
f8
f6
fe
fc
03
01
f9
f9
05
01
01
fa
01
fc
04
00
fe
01
fc
fa
04
f7
00
f8
fb
fc
f6
fc
f8
03
fb
00
ff
06
02
f8
fe
02
fe
00
f9
fe
fa
fc
05
05
fe
05
00
01
fb
fc
02
fa
f6
01
fa
ff
03
01
fc
03
04
f9
fb
fc
03
01
fd
fa
00
00
f7
00
fb
ff
fb
fc
ff
f7
05
04
fc
05
00
00
01
ff
fa
ff
fc
f8
fb
ff
05
f9
00
f8
ff
fa
fe
01
f8
ff
fe
05
fb
04
00
ff
01
fa
fe
00
fa
f8
f8
ff
02
f9
03
05
fa
fd
01
00
04
f8
00
fe
f8
04
00
f7
f7
03
fd
00
fb
f9
fd
06
04
fc
00
f8
02
fd
fa
f8
fa
00
fa
04
fe
fe
00
fc
04
00
fc
fa
fb
fa
fc
fe
03
03
05
f9
01
ff
fa
02
04
fa
fc
00
fb
fc
08
02
f8
04
fe
ff
f9
03
f8
fb
04
01
00
fc
fd
fb
05
02
03
05
06
fc
fc
fb
00
ff
fb
ff
01
f8
f8
fc
02
f7
fe
06
06
04
ff
03
fa
fc
01
fc
f7
01
04
00
fd
fb
04
01
f8
04
00
02
fc
f8
01
f9
ff
ff
04
fb
fb
fd
01
fc
fd
02
00
ff
fb
ff
04
f9
01
06
02
fc
02
f7
03
f8
04
05
fd
fd
fe
04
f9
fa
fd
02
f9
00
05
05
fb
00
ff
04
ff
05
06
00
fd
fb
06
fe
fc
02
00
fd
fa
f7
fe
01
ff
ff
02
00
ff
03
07
f9
fc
ff
fd
f9
00
fe
01
fb
00
fd
ff
fa
02
06
02
fb
fc
03
fc
fb
02
fc
fc
fb
01
00
02
fa
f9
fb
00
f7
ff
03
00
05
03
fc
fa
fc
02
02
01
f6
00
f8
00
f9
05
02
00
02
03
04
03
06
f8
fb
fe
ff
ff
00
02
f9
02
fa
fe
ff
01
fe
01
fb
fa
f7
f8
ff
00
fb
f9
01
fe
fc
02
ff
f7
fc
02
fb
00
fc
03
fa
fa
fc
f9
04
fe
00
02
fa
00
fd
02
f7
ff
fb
f7
03
06
fd
00
f9
04
04
ff
07
05
fa
06
00
fc
fb
ff
fd
f8
f9
f9
01
fb
0d
27
03
fd
eb
f5
f9
02
f1
fc
06
fe
ed
f1
fe
f4
03
09
fa
23
16
ff
06
03
fe
fd
f6
01
f8
0b
05
07
fe
f8
01
03
01
fc
f0
fa
fe
e7
ec
f1
f6
fc
fc
f9
05
02
f6
f8
fb
05
03
0a
0b
05
0e
0b
dc
f8
fd
f7
fc
0d
06
f7
05
fc
f2
ec
f2
ff
18
17
22
13
0b
06
f4
07
0c
00
05
00
f2
ff
fa
f4
fe
08
13
f9
16
33
20
21
18
0b
ed
e9
f2
f4
00
fe
14
02
fb
ff
fc
00
0a
0c
28
2a
25
1f
0a
03
fc
04
f1
fc
02
0c
01
ea
fe
1f
fd
f9
12
08
0f
2a
2a
2c
15
f0
eb
da
ee
01
11
12
fd
01
f1
07
20
1a
1c
21
1c
2b
28
27
14
f8
eb
f8
fb
f6
fe
0c
f6
fc
f2
07
03
19
18
1a
17
2c
2a
0f
04
02
03
f2
f4
06
0e
0a
f9
d4
e4
e8
ec
fe
11
0c
06
19
2e
15
f2
04
d4
f6
e4
ea
0d
06
f9
ff
e5
f5
f8
fc
ff
14
08
15
fc
0e
ff
e8
df
e9
f5
0b
f8
f3
f2
f8
f9
05
df
f4
04
f4
02
17
04
1f
04
fa
11
22
1a
06
09
06
01
ea
f0
e7
f3
02
06
f2
fd
1c
11
14
0d
0d
f0
0b
f9
f4
02
08
f7
f8
f1
f6
04
09
f6
02
f6
03
1d
04
e9
e0
fd
ee
f6
f0
0a
ff
f0
e2
fa
0a
f5
00
fe
04
09
0e
0b
03
0c
07
00
12
11
f6
f6
e8
e7
de
df
e3
f5
fa
0c
02
03
13
13
17
fe
ef
ee
fd
e5
eb
fa
f9
fb
f1
f9
04
ed
df
0a
fd
fd
14
1e
0d
08
ed
12
0e
00
e5
f5
02
fa
f2
e5
dd
f8
fa
0c
fc
fe
e9
03
f4
d9
bd
14
0c
f9
e8
ef
f5
e1
f0
ed
f5
f2
ed
ee
ef
f2
f9
0d
10
dd
e4
de
d3
e9
d8
d5
da
d7
dd
d8
e9
e3
e1
ed
e6
f0
cd
e6
0c
fe
f2
1d
10
08
07
fd
0c
f9
f4
ff
f3
fe
fe
15
18
15
20
1f
24
01
ea
21
15
1f
f6
04
0a
09
fb
ff
0c
26
00
ff
f9
01
06
00
13
17
21
00
00
fd
fe
fe
fe
fc
f6
fa
08
03
07
17
10
0d
0b
11
1d
24
02
23
12
1f
11
05
18
00
fc
fd
ff
07
13
19
0c
15
28
16
01
09
00
04
25
05
02
17
0f
03
0d
06
f6
07
0d
ef
fa
11
21
1c
2d
15
15
2b
23
01
10
21
0d
23
06
fe
e7
ef
f8
f2
e6
03
10
08
12
37
22
15
1b
0e
0d
0c
12
0a
f5
f8
fa
f3
f4
ef
fb
fd
02
f1
ff
23
26
13
0a
08
fb
15
10
07
01
f3
f3
e9
06
ee
f4
0e
f4
f7
f7
09
02
19
20
10
11
07
09
02
fb
f4
f2
f9
03
fb
f7
00
ec
08
ff
f3
ff
1b
14
02
07
0c
02
fc
f6
ee
fb
09
17
f7
ec
f8
f3
fd
05
04
13
0b
f4
03
00
09
f8
fc
f6
ee
06
0b
00
02
04
fd
05
e9
fe
12
20
f6
fc
fb
02
01
fc
00
02
01
03
03
0c
13
0b
11
06
fd
02
f9
f2
05
09
fe
f1
ec
f2
03
fc
04
1a
0d
fe
00
01
0e
e6
f5
fd
0e
06
04
fa
ef
f6
f2
0d
fd
06
04
06
09
12
05
f5
ef
e7
f7
fa
10
09
f9
00
fe
fc
05
20
06
0a
17
10
fd
07
fd
ec
e2
ff
ef
ec
ee
fc
e2
f9
04
fb
fd
04
08
1e
19
01
14
07
00
f5
fd
ee
f2
f2
0c
02
e9
fe
f4
f9
04
09
0d
0c
0d
04
11
02
02
f0
04
00
f8
ee
f5
d9
fd
fd
05
0c
07
0c
0b
13
11
17
19
0e
06
fc
03
04
ff
04
e2
eb
f5
07
0a
0c
10
0b
0c
18
0c
1c
15
15
11
fc
f1
08
1a
1c
09
fb
f9
0e
25
18
05
10
14
19
0d
19
0e
1b
0f
fd
00
04
06
e2
d4
bf
f7
ef
f2
db
dc
03
e7
fd
16
42
2c
eb
20
17
fb
0b
09
0a
13
06
f2
d0
d5
d6
f9
fb
ba
fb
2a
48
33
2a
43
39
02
12
00
1c
1f
0c
ef
cf
d1
ef
09
e6
0b
13
18
2b
2e
17
3b
0f
02
12
1b
10
01
0a
f0
05
04
1b
02
eb
18
3a
f0
08
f9
10
25
14
03
17
0f
1c
09
12
ea
f4
fe
12
f5
01
0e
07
fa
07
2c
15
26
1e
18
0f
16
1b
fe
fe
e5
f6
0e
17
f6
08
fd
06
04
07
fe
1c
1a
16
15
15
21
0c
03
06
f8
f0
f9
fa
f5
fa
fb
0e
08
10
11
1f
16
1e
fd
0a
21
1f
10
27
e7
e6
ec
ec
df
03
f8
00
04
f2
fe
00
09
04
0a
03
10
10
03
27
ed
ed
01
01
db
db
04
f6
01
06
ef
0a
06
04
f7
fb
fe
0c
06
13
d6
f1
e5
d9
ea
e6
f1
e7
00
12
f6
05
03
f3
fe
f4
fc
1c
0d
13
de
09
e9
e8
fb
ed
e2
f5
02
f8
fe
02
f2
ed
f3
eb
e5
05
05
17
00
12
f4
f2
09
07
ff
00
f8
d6
e6
20
0a
f6
f5
ef
e6
f3
fe
14
f1
f6
01
fd
1d
00
f4
03
fb
f2
16
e2
05
06
f6
e6
f1
f2
02
fa
16
05
08
f7
fd
10
00
0a
02
23
11
f6
05
10
f8
f4
eb
02
fc
06
13
01
0f
f4
0f
12
1a
00
0e
f4
05
01
f6
f4
f8
11
f6
f5
08
0b
1e
03
fa
13
fd
e5
23
14
00
11
18
f3
06
0e
07
0a
03
fd
ff
fa
14
13
03
03
04
ef
dc
d1
f4
fb
05
07
f5
f9
fc
0f
06
05
f4
07
0a
fa
01
0b
09
ee
c5
fb
f9
06
01
04
f5
f6
f3
09
0e
08
fe
ff
16
05
f0
05
eb
f8
fc
d8
e7
f4
ee
03
f1
f5
0c
f7
04
fa
04
fe
ec
f2
f3
fc
f3
ea
fa
01
01
fd
fa
ef
00
00
00
ff
fc
11
06
02
05
0d
0d
05
05
0e
0c
10
10
16
0c
0b
10
08
ff
ee
02
02
0e
0a
06
08
17
08
09
f9
06
0d
05
fd
fe
ff
fb
09
0a
fd
06
14
14
1c
04
04
fb
0b
05
14
15
13
16
11
12
04
fe
ff
07
03
0c
00
f4
fa
07
11
09
13
13
02
15
0e
1e
0a
10
14
0d
0b
14
14
05
1c
12
16
21
05
04
0e
0a
03
0c
1d
1a
0b
12
0b
1c
36
22
15
1b
1a
12
0b
0b
ed
f3
11
f8
fe
08
20
0c
15
06
0c
0c
1e
17
17
27
2d
1b
17
0e
0e
1f
0d
08
08
0d
0b
0f
16
2b
29
09
27
24
2b
32
0f
fc
18
ec
12
fa
f3
f7
0d
25
12
20
10
11
0d
0f
1f
0c
05
11
1f
1a
fe
f9
f1
0f
1e
04
06
02
10
0f
0c
23
0e
30
16
15
07
21
07
11
f9
16
f7
ff
e6
06
14
06
13
06
0b
f5
10
0b
02
02
1a
1f
12
0d
f6
01
fb
04
e7
05
16
18
0b
1c
fe
17
1a
fe
ff
02
0f
f7
00
12
f2
fd
16
09
1b
1a
0f
09
0c
16
08
0a
06
fd
14
0f
14
12
06
ea
03
10
02
fe
01
04
03
00
21
29
fb
f1
05
0d
00
06
08
0a
f5
f1
04
01
fd
0e
29
22
19
22
25
12
1c
0c
fe
f4
12
07
fd
ea
fd
e6
dc
00
0d
0c
12
0a
02
1c
1e
f1
f4
f0
e5
14
fd
f2
01
e7
f4
d0
d7
01
29
1d
10
00
1c
fa
0e
17
14
f5
e8
e1
fa
fd
0b
eb
db
dc
ce
eb
f0
10
11
f9
fa
f8
00
06
f1
f5
f8
fd
f3
df
f6
ee
ea
de
ce
fe
09
0e
06
06
0a
08
09
0a
05
fa
f1
f1
06
e2
f5
ec
da
d2
b1
e9
fa
0d
01
02
13
0a
05
03
fb
09
f6
f5
f6
ef
df
df
d7
e2
e4
67
39
34
1e
1d
12
00
16
06
f2
fb
f0
f0
c6
c1
be
ad
bc
bc
c3
06
08
08
0d
10
0e
2a
25
31
1f
1c
15
fe
11
0b
fd
ec
02
12
31
fd
04
00
1c
0b
10
0e
20
1c
18
10
1f
22
14
09
03
f7
fe
f8
04
fd
00
0d
07
02
05
16
14
05
00
0b
0d
13
19
28
12
13
10
ff
25
f7
0a
07
00
06
06
01
14
0b
1f
12
02
0c
20
07
0e
15
01
21
2d
14
12
08
1f
fb
f4
10
09
ff
12
06
f9
1e
04
0b
12
18
18
0a
12
02
06
1d
11
0f
1e
20
15
12
10
02
f0
0e
02
10
15
10
fa
04
07
04
15
1d
11
0d
01
fe
08
10
f7
e7
fe
e7
fd
18
28
17
0e
17
06
05
0a
0c
08
09
01
03
03
0b
fe
09
f2
f1
04
0b
0e
0c
07
13
e1
15
f9
03
12
0e
ff
0d
14
16
00
19
18
03
f0
fa
02
04
05
f8
fd
0c
0a
09
f2
fe
fb
f0
ff
fd
11
02
fb
f9
f3
eb
e6
ec
ea
d4
e6
ef
f7
fa
fb
fa
ff
08
fd
10
03
03
01
fa
ee
e8
e0
d2
c8
ce
d3
f1
f7
00
f2
03
02
fd
08
fb
1b
1d
fa
d3
cb
e4
d5
e6
d0
d6
de
ed
f8
f4
f1
f5
fb
02
f2
02
07
14
fe
ee
ec
d7
d6
e2
d9
d3
bd
e0
da
e1
f1
e5
f3
0f
0b
08
06
03
fe
e3
e8
e4
ed
f3
f5
e8
c4
f1
e9
eb
f3
e8
e5
ea
ec
06
05
01
f3
ef
e0
fc
f4
03
eb
e6
e2
f8
f0
dd
e7
ed
e0
eb
ef
f7
e6
f1
f2
ec
f1
f0
fc
f9
f1
eb
eb
e5
fc
ec
ef
f5
f0
f8
f5
e0
fb
02
06
00
04
e8
fe
02
0b
fa
08
f1
f6
f7
fa
f7
fe
fd
f7
fa
06
fc
ff
00
fd
09
0d
0a
0a
04
18
e6
f3
f0
ea
ea
e7
ee
ff
f5
00
02
05
0a
f8
09
17
04
04
00
19
f2
fa
f4
07
01
fa
f1
03
0a
0f
fc
17
0f
08
f1
0f
0d
05
11
1a
ea
f0
fc
f1
f6
c4
e0
bc
f0
b7
df
cf
ba
f2
bb
bf
b9
df
01
f4
e6
ef
f5
f5
dc
f2
08
ee
ca
b3
f0
c4
d9
ab
db
dc
ce
fb
f9
ec
ec
d0
ef
17
03
f9
0d
3e
0a
22
1c
e8
ed
f4
01
ee
e3
04
03
e1
f9
08
05
09
e5
ff
16
fe
08
17
fd
e8
0e
10
17
fd
f4
fd
00
f2
0f
eb
0f
fe
fa
10
01
0e
17
ff
e9
f9
fe
14
0c
03
fa
f1
08
e2
ee
ff
04
02
12
fa
ed
ef
06
f7
f8
0e
f3
07
0c
12
14
08
09
e1
05
02
02
f9
00
07
ff
ef
f4
0a
e9
fe
f9
fa
01
ff
ff
f7
f5
f3
f9
f1
fd
ff
e2
f0
fb
ff
17
f5
f3
e4
fc
04
01
fe
07
fd
f9
04
ee
f2
00
fa
0f
1f
de
e6
0f
f8
e6
fc
f0
ed
fa
00
12
f2
02
09
ee
04
1f
19
04
17
f3
08
00
f1
13
08
f4
01
f6
fd
06
fd
15
04
fa
10
04
f7
e8
15
32
11
1a
1f
0b
07
f9
fc
f7
03
08
08
0b
01
09
1f
f8
1b
0c
02
22
10
0a
35
05
01
f5
ef
ea
fc
0a
00
02
f8
14
33
14
19
0e
1f
fe
12
31
14
fe
fe
02
04
e9
ed
04
e9
03
ee
21
20
0b
28
1f
11
0b
0f
1d
fa
f5
21
0c
f9
e2
06
fc
f6
fb
f4
0f
16
1e
14
2b
23
02
09
f3
10
22
12
19
07
fc
f7
0d
08
00
06
19
1c
26
1f
17
28
35
f6
03
1e
f6
14
09
05
ff
00
05
03
13
08
0e
f2
fa
04
2a
16
fe
00
f1
1f
01
f9
05
f3
f0
09
f3
11
03
15
0c
03
f7
0e
11
05
0e
fe
e9
f4
05
02
00
07
fb
00
f5
10
fd
fd
14
07
0f
12
f1
ce
f4
12
02
fd
18
0b
0f
1b
09
fb
f8
04
02
f8
15
fc
ef
0e
fa
f1
fc
ed
f6
03
16
0c
f7
0a
fa
fa
fc
01
fe
ff
fd
ed
ec
03
fa
02
fd
11
1e
13
22
21
22
17
0a
0b
21
17
0c
e7
ec
ee
ef
fd
05
10
1b
1a
0a
0e
0c
11
11
1e
0f
00
fa
fa
03
f6
e3
df
f8
0b
0a
0b
0c
08
0a
14
0e
12
07
04
07
12
ff
fe
07
f9
ea
e9
00
f3
02
fe
08
fc
18
08
0a
1c
10
09
0f
0f
0b
03
fc
fc
f7
11
f6
f8
04
07
0c
10
1c
17
12
19
14
f6
f9
13
06
ef
eb
01
02
11
ff
f1
03
08
f6
14
24
0c
ff
fb
0b
0c
16
12
fc
fd
03
16
e9
05
00
01
ff
f9
0b
1f
1b
10
0b
02
15
ed
f1
ed
f1
ed
fb
0a
08
03
ec
f2
ec
f8
0a
06
1b
10
ef
f6
fe
ff
13
f7
dd
00
00
fc
0e
fc
f7
ed
ef
ef
08
0b
1a
f7
fd
00
fd
0b
11
fd
e6
e6
0a
fa
e5
d8
fa
f6
ff
0c
38
1e
10
ee
01
01
06
00
11
06
f9
f0
f4
ec
dd
f4
e2
fd
f6
fa
0d
0a
01
02
f3
fb
e9
03
22
0c
f5
fe
e9
f5
03
01
d9
e2
09
08
04
13
09
f9
00
f5
04
20
fd
01
03
05
07
f7
d4
ea
fc
eb
21
06
11
0d
01
e8
0d
f9
1c
12
05
07
01
fc
0c
f8
f0
ef
f5
f4
e5
17
23
03
15
fe
04
09
12
09
f3
f2
f5
fd
04
12
d9
d3
d9
f4
ef
fa
0a
17
05
07
18
0a
e6
f8
fd
0b
0f
07
14
01
f0
e9
f5
fd
f1
f5
fd
fd
ea
04
10
16
02
1f
fa
fc
ed
1e
fd
12
03
e5
ee
db
04
e8
f2
f9
03
f7
11
0b
f0
12
08
ec
f3
fa
dc
10
e3
f3
f9
fb
ef
ee
ed
e5
03
fc
0a
06
04
fe
02
19
ec
df
fa
0b
fd
e5
e8
ed
eb
f8
fb
f7
04
03
fc
0c
01
f2
06
f9
ee
00
0f
2d
e6
eb
02
fb
fe
fe
19
1a
fb
14
01
03
08
f1
fb
02
04
07
15
17
d3
f8
04
06
1c
0e
35
29
1a
12
07
0c
12
14
06
02
fb
09
f3
f2
02
00
0b
01
f6
06
10
0d
22
12
0e
03
06
ff
07
1b
0c
0b
03
f3
14
13
f9
11
0c
16
15
19
1f
10
19
0a
02
0d
14
0f
13
08
0a
fe
ef
06
0c
09
14
13
09
f4
ff
07
fb
f4
02
fd
f2
03
04
0f
e0
cd
f5
1b
fb
0a
f9
f9
01
17
0e
fb
ee
f2
f0
f4
03
ff
14
f8
e5
e6
08
f5
04
01
01
ef
f4
01
03
fa
f2
f0
f1
f6
06
05
ea
e6
ef
f9
04
05
06
08
08
fb
10
fd
0f
f1
f0
f9
fc
fc
09
05
15
fd
f8
f4
1f
10
18
04
fc
0e
06
03
06
f2
02
f2
fd
14
0a
17
02
fb
09
0b
06
0c
0a
fd
09
0b
03
fa
00
f7
ef
ff
0a
12
0b
12
05
03
0d
30
09
0d
fa
0a
00
10
ff
f7
09
0d
0c
f3
09
00
01
0a
08
05
0a
3d
08
07
0e
00
0a
02
0b
00
f3
10
08
f8
fb
0a
1c
15
07
fa
03
31
06
03
f7
ff
ff
fd
0d
08
0e
02
10
01
06
f7
fb
15
0e
08
14
23
03
fa
f9
f6
f6
fe
03
01
00
0f
0b
06
00
f6
01
fd
f1
f6
fa
f5
11
03
14
0b
f9
07
0c
01
01
05
00
fd
f5
f0
f9
ee
e8
e5
f9
f9
18
f9
04
f4
06
16
0c
fd
09
fa
05
f8
f6
f5
dc
04
eb
0f
05
0d
1e
02
fc
fb
07
01
02
01
09
ff
fe
08
06
06
ef
fb
fb
03
03
0e
0b
15
0c
ff
fb
ff
0b
00
12
13
07
08
fb
06
01
f3
10
f5
04
08
12
1f
0a
04
11
09
09
0b
02
04
fe
00
08
0c
0e
fe
f5
fd
03
15
21
1e
0c
05
ff
0e
00
08
03
04
02
01
0a
0b
15
14
0c
1a
0c
0e
1b
13
00
fa
eb
fd
fe
f5
04
03
fe
00
fe
12
f9
0c
0c
0f
12
dd
18
23
36
48
48
56
62
64
2b
d4
bb
c5
04
de
20
ff
26
03
f8
ff
22
3f
49
44
54
61
4b
25
cf
be
c5
e2
02
06
27
1f
11
01
0a
15
21
32
2b
19
13
19
1b
e0
dc
0a
d5
0f
dd
e5
10
03
06
f0
01
12
fd
02
ea
d7
b3
db
f4
00
ca
f2
ff
17
e2
f1
f6
f9
03
f4
fd
f8
f5
19
02
f2
e3
d7
d2
e6
fc
05
0b
06
e5
eb
da
e6
ea
f5
fe
e4
1b
06
ce
ec
d5
ed
c9
e3
f3
cd
e4
08
f8
03
e7
e0
de
f7
ef
e8
12
fd
01
0d
f4
ee
e1
dd
db
eb
ec
ef
fd
01
f3
e8
df
f0
ee
ea
16
f8
e0
f4
ed
f5
0a
f7
ed
f5
e9
ed
fc
f2
f2
eb
e8
ed
e2
e4
16
16
03
f6
f5
e8
f5
07
f3
ec
05
f7
fd
04
1d
f9
fd
0a
00
fb
fc
0a
0a
f1
fc
e2
ff
01
f6
03
f5
02
f3
06
0e
01
0c
0e
06
03
16
ff
e6
fa
01
f3
fe
ef
ef
cd
d6
ef
04
15
0d
0c
09
0b
07
0a
03
06
fa
0e
05
fa
ec
ec
ff
e7
0b
fb
06
0a
1d
0c
0e
0b
18
1a
f9
07
f4
e6
01
f0
e2
f7
0b
13
09
0c
05
fc
01
09
08
1f
1b
2f
0e
00
f4
fe
e8
e9
f7
ed
f6
15
05
08
05
03
f4
02
0e
1b
1a
08
04
00
df
f5
f8
ea
fc
06
07
0e
e3
1e
0f
f5
13
09
01
10
08
f0
f5
f9
c7
de
d6
13
0a
f7
07
03
00
00
ff
09
05
fc
0a
f7
fc
ff
09
f4
df
d8
db
eb
f3
ff
0b
0a
08
f9
fc
02
08
f9
f7
f1
04
ee
f9
fc
f1
da
e8
eb
e8
f6
07
0b
02
f8
0a
10
ff
f0
ff
00
fc
fc
e2
f7
f5
ea
f5
0d
dc
e8
f3
f1
03
0e
01
01
f9
0a
01
02
06
ff
15
1f
0f
00
09
0a
ee
f2
e9
e4
ee
e9
eb
e8
04
0a
fb
f0
f8
05
18
19
1e
21
07
0c
0f
09
09
03
fd
eb
06
04
fe
f7
0e
09
15
01
0b
0c
fd
fd
f7
1c
07
01
07
0d
16
ff
f9
fa
ff
f3
fa
04
16
fe
18
0c
fb
ea
fb
0a
17
14
09
0a
02
01
f4
f8
03
fe
f9
f0
01
07
1c
0a
f6
13
ff
0c
11
0c
05
fb
00
f2
f3
f5
ec
f0
f0
e6
05
0a
4f
16
00
f9
f5
16
07
0d
fe
07
fa
f7
ed
e4
e8
de
ec
07
12
1e
25
1f
06
00
28
09
18
14
00
f7
e2
fa
f3
ef
03
f3
f2
0c
f9
0e
28
14
01
0a
03
0e
14
21
0a
ff
f4
fa
d9
dd
e9
e8
ed
04
f3
0d
14
0e
20
20
11
11
13
1c
f7
eb
fd
02
ea
ed
e9
e0
07
0d
10
0f
27
13
fa
06
23
13
0d
14
07
28
0a
05
f6
d7
e0
eb
f1
f8
f7
0e
3f
2a
14
14
0d
07
08
0d
17
13
fe
e7
04
ff
ef
16
fe
ef
07
23
2e
10
1f
22
07
1a
12
15
12
0d
fb
f4
01
ef
f7
f5
fe
00
2e
3d
17
36
2a
20
14
ff
2b
1f
0f
0f
f2
f4
0d
f3
09
07
03
fb
33
36
13
11
15
12
0d
f1
09
0d
0a
22
17
15
ff
f8
1f
14
0f
14
24
24
1b
25
18
fd
fc
08
16
06
0b
04
0c
fd
ed
e0
f8
07
21
36
3b
38
19
21
1a
05
fa
fc
e6
fd
16
1f
0e
fa
07
08
0e
14
1f
15
1e
24
07
08
15
01
ff
e3
dd
ff
07
fa
00
ed
f1
04
14
2a
27
22
1a
30
0b
1a
07
ec
09
fe
fe
01
f4
f1
e8
ea
fb
0a
f8
15
1c
13
f2
15
1b
10
f7
f7
00
f9
f4
07
f6
f6
f5
f9
f6
04
07
15
ff
04
20
2a
31
06
fb
06
01
f0
e8
f6
ee
e7
e1
f0
eb
ed
ed
06
0b
27
30
1a
d4
ee
fc
f2
f1
e8
01
f5
e2
e1
f2
ea
dc
e6
06
1f
25
25
0c
15
10
24
35
24
19
27
01
0a
00
f1
ee
ff
f0
ee
f9
01
fd
ee
ee
f7
12
0f
03
09
17
07
f3
ef
ef
e6
e4
de
e2
eb
f4
05
fe
e1
f8
f3
15
25
fc
f9
16
14
fd
fc
ee
f1
f8
ef
fc
f4
d3
d3
e6
ec
ce
cc
25
fb
f8
0f
f1
f7
09
01
06
06
fb
f9
02
f4
03
01
0e
e9
ef
01
06
e6
07
e1
f8
11
0f
02
03
03
08
f8
f9
18
0e
0d
14
ff
20
3b
f6
eb
f9
01
fc
0b
0d
0a
0a
08
01
0d
02
12
0c
08
0a
02
01
17
05
fc
02
18
f4
10
01
13
06
09
0a
02
0a
26
20
11
15
1d
0c
15
04
fc
04
f8
0d
03
09
06
f4
04
f9
0d
17
20
2f
2b
2b
29
1f
3c
f1
04
f9
11
0a
11
14
0a
09
00
13
13
2a
37
28
30
1a
28
27
2a
f9
ea
f7
fa
02
09
1a
0f
07
fd
05
25
31
23
20
24
10
17
26
36
e7
00
f4
ef
fb
f0
fc
fc
07
16
10
2a
23
1d
22
12
1d
2e
33
2a
ec
ed
ff
f9
fb
f2
ff
05
13
1d
1c
15
09
0b
07
13
16
09
08
17
e5
d2
eb
ed
ea
f4
09
03
14
0d
0d
07
03
f2
f4
0d
04
05
06
11
ee
f0
e9
ed
f0
f2
04
0e
17
19
01
07
00
00
07
fc
01
e8
f4
05
f7
ea
fd
f4
ec
fe
0a
fa
ef
fe
ff
ff
f1
00
0b
fb
f3
fe
f7
ed
f6
ef
fa
0b
fb
08
08
0c
ff
0d
09
ff
fe
f8
f8
e5
ef
fe
04
f2
fa
0a
fb
07
f9
f2
fe
01
0b
fa
f9
f7
ed
f5
f1
eb
fc
02
fe
f6
f8
f3
ff
fb
f7
f2
f9
01
02
0c
05
08
f5
fe
e5
fc
f3
f6
fa
f7
e8
e7
f5
06
f9
f5
08
14
17
15
05
02
08
0e
fa
fe
ea
dc
ef
01
ee
ff
0a
03
09
05
ff
07
14
0b
17
0a
04
fd
14
1a
0e
ee
12
14
f4
ef
ec
cd
bd
a3
c5
81
82
d2
0b
27
10
e2
20
51
fd
de
dd
d6
01
eb
e8
e4
ee
f1
23
db
02
f9
fb
31
10
ef
30
1a
e0
c7
db
eb
f8
0c
fa
f6
ee
2c
46
02
2a
f5
04
15
0a
03
fe
e5
f4
e5
e8
f2
01
1e
15
01
29
3b
0e
00
18
09
3c
0c
2a
25
fb
19
0d
f5
ea
f0
f6
1e
15
1a
2c
18
2b
3d
f7
f2
eb
19
17
f5
f2
04
02
08
f3
fb
2a
54
2a
1e
32
29
2f
15
03
0d
0b
fe
0f
10
0e
03
f8
07
fd
0c
10
11
12
1e
26
10
08
ef
08
fe
00
f8
00
12
0d
11
05
0b
03
00
15
2a
28
13
1d
10
fd
f8
08
f6
04
1a
f6
f7
fe
0b
f8
ff
fd
fd
29
46
08
2a
26
e8
01
fe
0d
05
0f
12
ee
f8
fd
10
0e
0d
13
0f
26
1c
17
0f
0f
ff
1e
0a
01
fb
f1
11
f0
f7
03
ff
1c
19
1f
18
25
15
33
0c
14
05
24
06
01
dd
d3
e0
f3
12
f7
06
11
02
15
0b
2b
14
23
f9
0b
16
0b
ed
09
ed
f1
f9
ea
02
e5
02
0d
f9
07
0e
02
04
32
29
02
fd
fe
0d
f0
fd
ef
12
1c
0d
f1
fd
f6
06
0c
06
f9
29
2f
0f
1b
07
00
fe
fc
da
f0
1d
16
f9
fc
f1
f3
ee
02
05
0f
22
1f
fe
0f
fd
1b
fe
f6
ea
08
22
f8
f4
f1
f3
fc
f9
fb
05
f2
f1
fd
f5
0e
08
06
fd
1b
e4
f9
08
fd
f2
fb
e4
eb
e6
ec
f6
fc
08
0b
f9
15
00
03
fb
13
03
02
fd
ef
fb
f2
ed
f6
f1
0a
02
11
15
f9
02
fd
ec
06
fb
f5
ff
fc
f8
e4
e6
ed
f6
06
f6
07
f2
1c
fc
01
fc
04
19
16
ec
fa
fd
e0
ec
ea
ed
f1
f6
fc
ef
08
f8
fa
13
14
04
0f
fe
12
e7
00
00
ef
f8
0c
0d
0a
ff
0d
09
0b
f1
ff
fa
fb
fd
fb
fd
fb
02
08
fd
fc
fb
04
fd
ff
fe
01
fa
fb
fd
00
fa
01
fe
03
fc
fc
04
08
04
fb
06
03
fb
04
fa
fe
fb
02
04
ff
fb
fb
fd
00
ff
fc
04
f8
ff
04
f8
05
fe
01
fc
fc
00
fb
03
fc
fc
fa
fd
02
ff
fd
02
03
fa
fd
fc
04
04
ff
fb
fc
fd
fa
fe
02
05
fe
fe
02
05
fb
06
fc
fc
fa
f8
f9
04
01
fb
02
fe
03
f9
fd
03
01
03
ff
02
00
fc
05
fb
ff
02
f7
01
f9
00
fd
04
06
05
02
02
fc
01
f9
05
01
05
ff
f7
04
01
ff
fa
fe
06
fd
fb
fa
fd
f9
00
fa
06
00
03
f9
00
f7
fc
02
03
fc
07
fc
03
07
ff
04
03
fa
03
ff
04
00
02
fb
fe
02
fe
fc
fb
04
ff
fe
03
fc
fd
03
00
01
f8
00
04
fa
f9
ff
fa
fb
01
03
03
04
fb
fc
fb
04
fd
02
fe
00
fc
f9
01
01
fd
f7
f9
00
fa
fc
ff
03
00
02
04
fd
fe
f8
fd
00
01
06
05
00
06
08
02
fa
f9
00
05
04
ff
fd
00
f8
f9
fd
04
fc
04
04
ff
02
08
05
07
03
07
02
08
fb
05
02
01
fa
00
02
04
02
03
05
fb
06
07
07
fc
06
ff
fb
f9
07
07
07
00
01
fb
05
fe
01
05
fa
fa
f9
f8
05
ff
01
07
fd
ff
01
04
07
00
f8
01
00
fd
05
ff
01
02
ff
f9
02
03
fa
fb
02
f7
04
fc
fd
fb
fa
00
fa
01
fb
fa
00
fb
ff
fa
00
fb
01
04
02
05
03
01
fb
fb
01
fe
00
fe
fb
07
f7
04
ff
f9
00
fb
fe
fd
fc
fd
06
01
08
fc
07
06
ff
fd
06
fb
06
fe
03
f8
fe
f7
03
fa
01
f8
01
05
fa
fc
04
06
fc
08
01
fd
fb
00
00
fc
02
00
f9
ff
fc
04
f8
05
07
fa
06
fb
fd
fa
fd
fc
fa
ff
08
fc
fe
fa
06
02
f8
f8
02
fe
ff
fa
fe
f9
f8
01
06
fc
05
00
fd
fc
01
04
02
fc
fe
f7
fb
02
02
fc
02
ff
04
ff
01
fd
fc
06
fd
03
03
03
f9
ff
fa
f7
02
00
f8
fe
f9
01
fa
04
f9
ff
fc
fe
fe
fd
04
fa
fd
00
fa
ff
01
f8
00
03
03
fc
f8
fd
03
ff
04
f9
02
06
f9
fd
fb
fd
03
06
00
fd
04
fe
01
fa
03
00
01
01
ff
fa
fd
00
05
02
fa
fc
fa
fd
fd
f8
f8
00
01
fe
02
f9
f8
00
fe
05
ff
01
f9
fb
00
fa
f8
fb
00
03
06
03
fe
05
fa
fb
f9
fb
04
fb
fb
f8
03
f9
fa
ff
fa
03
00
02
03
04
00
ff
ff
fa
fe
01
02
fa
ff
ff
f8
f9
03
fd
00
f9
04
fb
02
fb
01
04
ff
ff
03
fe
02
00
06
f9
fd
02
01
fd
fe
02
f9
fa
04
01
03
ff
02
06
fd
ff
fa
fa
03
00
01
fe
fa
05
02
fd
f9
02
04
03
00
fd
02
00
ff
f9
01
fa
00
f7
03
00
00
f7
fe
02
fc
fa
ff
fd
01
f9
fb
fe
00
fa
ff
04
fc
02
02
03
00
04
03
fb
fc
03
fa
f8
ff
f7
f9
03
f8
fd
01
00
fd
01
fb
fd
fb
03
04
03
fa
f8
fe
fd
00
02
01
05
05
fa
03
ff
fd
00
fe
ff
ff
05
fa
01
05
fc
02
fa
05
fd
04
07
fe
f9
f8
f9
fc
fc
04
00
f8
fb
02
fa
00
00
00
fc
fe
05
f9
02
f8
05
04
01
00
04
03
ff
f9
05
ff
f9
f7
fc
03
fe
01
04
05
f9
05
f9
03
02
f9
fb
ff
00
f9
00
00
f8
ff
02
04
f9
00
fe
fa
fa
fe
03
03
f8
01
00
ff
fb
05
02
fa
01
ff
fc
01
03
fb
03
fd
02
00
f9
04
01
00
03
f9
05
f9
03
02
03
01
f8
03
00
02
02
fb
02
01
fd
f9
01
01
00
fe
05
fd
06
00
01
fb
fd
fb
06
fc
fb
04
05
f7
fa
ff
f9
fa
04
04
02
00
04
fe
fa
00
fc
07
05
f9
00
fc
fb
02
fa
f9
ff
f9
fe
07
fd
05
ff
fb
05
01
00
fd
fc
05
f8
fd
fb
fa
04
fb
06
03
05
ff
00
05
ff
fb
02
00
fd
03
07
fa
00
ff
fd
fa
02
04
00
fa
f8
02
04
05
06
01
01
01
f9
04
05
f8
ff
fe
01
00
fc
05
fc
07
fc
03
fb
05
fc
fc
04
ff
02
02
fa
f8
05
03
f9
fa
02
00
fc
07
fb
02
fc
07
04
04
04
fc
fc
fb
fe
fd
fa
f7
ff
f9
05
00
fc
fd
02
05
00
ff
fe
06
06
ff
fd
05
05
03
fd
fe
01
f9
00
fd
04
fe
03
fc
fc
f9
fa
04
04
01
03
f9
06
f8
fc
02
fe
fb
ff
fc
f8
01
f9
f9
00
fd
01
fe
f9
f9
00
fc
02
04
02
fa
fc
03
03
04
fe
05
fe
fb
07
f9
00
02
fa
01
fd
fb
00
00
fe
01
fa
03
ff
fb
00
04
f8
fd
03
00
fc
fe
fc
02
fe
fa
01
fb
05
fc
00
04
f7
00
fd
fa
fc
01
01
04
04
f7
ff
fe
fb
03
04
05
fa
fb
fd
ff
fe
fe
04
04
06
00
fd
03
fa
ff
fa
00
fb
04
02
01
01
f9
02
00
fe
fe
fa
fa
fc
00
ff
01
02
06
fe
fe
01
fa
fb
00
fc
fb
fe
fa
fb
01
02
f9
fd
06
ff
00
f9
f9
fa
ff
05
04
01
03
04
01
ff
f9
fd
f9
f9
fb
05
fd
05
fe
03
fe
f9
fe
fa
05
05
02
fc
00
f9
f9
fe
00
fa
fb
f8
02
05
04
fb
01
06
01
f9
f8
fb
ff
f9
fc
02
fc
03
05
fe
09
00
fd
f9
06
00
00
f8
ff
f8
fc
fa
fa
fc
f9
03
f9
f7
02
01
ff
06
ff
fe
ff
ff
05
ff
fd
01
fa
f9
f7
02
fa
04
2a
04
00
07
20
12
12
ff
ff
0e
06
1c
0a
02
03
ff
01
ff
f2
00
f6
fd
f2
f6
fc
fe
ed
f2
00
f6
fc
06
f9
f8
fd
01
1c
f7
f7
0c
fa
fa
07
fe
fe
01
07
0d
03
fe
01
07
fb
02
04
06
ff
00
0d
0d
0a
fa
06
03
06
05
0b
fb
01
0d
fb
f6
05
0e
01
03
02
f1
f8
12
f1
fd
11
fa
fc
0c
08
02
01
09
0e
fe
10
0f
03
10
fe
f8
0e
10
f2
0e
12
09
05
07
01
fb
fb
ec
13
10
1b
05
08
0d
0f
07
05
1e
03
07
f6
00
1b
09
08
f2
f5
fa
12
0b
13
12
06
17
18
0a
01
16
03
11
1b
0b
02
f5
fd
ed
f0
23
11
1e
08
fa
09
1c
10
07
e7
0c
fa
f9
22
1b
21
12
f5
0f
12
0d
e9
fe
0a
35
19
0a
0c
11
fe
13
f3
0e
03
11
ff
02
0c
05
0e
0b
0a
08
0a
19
1d
1e
09
13
05
f5
1c
16
2d
1e
05
f5
ff
0f
0b
f6
03
01
1d
48
31
26
22
1e
0e
02
1b
f6
08
0b
f9
fb
f2
00
f1
f0
02
1c
22
20
22
0f
0a
fe
08
f6
17
23
13
2b
0e
06
12
0c
0a
0e
05
02
0a
16
1d
15
0c
07
fd
fd
20
07
09
fb
0d
f9
f0
0b
ff
ef
f3
fb
19
2c
3b
22
10
f8
f4
0e
22
0e
0a
13
06
00
02
ef
ea
f1
fc
14
fd
2c
49
22
00
e4
e3
f2
11
12
f0
0e
0c
f0
fa
f0
e6
e8
fb
1e
3a
1b
0f
04
fa
e7
f8
f7
05
09
f3
f1
e0
ff
eb
e9
e8
f5
0c
2c
32
0f
3e
2a
06
f0
f9
06
ec
06
f9
f6
fb
f8
fc
f7
fa
07
09
21
25
37
1e
02
0c
1a
05
05
f3
f1
f2
f3
f3
f5
fe
f4
fc
15
0c
1e
10
15
26
21
12
0d
eb
e6
09
fc
e8
0f
11
0d
16
1c
32
48
41
2c
24
3d
3e
2a
f8
e4
f4
f6
2d
1b
19
25
1f
10
19
ff
f0
f4
16
21
16
0f
12
02
15
0d
27
2a
0d
01
13
1a
17
15
0a
09
12
0d
16
1b
1d
0e
07
fd
08
11
14
16
16
16
1f
16
0b
0d
0b
05
0c
10
17
25
0d
f1
14
21
e9
e0
fe
06
f3
03
06
ff
fe
fa
0f
06
03
11
0f
10
15
09
12
fa
ec
18
11
0a
df
09
0d
f9
10
0c
1d
01
02
f7
f0
07
fc
06
ff
f4
03
1f
20
27
f5
08
00
fe
07
0e
05
f8
0b
07
0b
03
f7
01
17
03
ff
20
0d
16
0b
14
0d
0d
03
0a
04
f8
f4
f7
ff
fe
04
0e
f9
fe
0e
0e
ff
13
07
1b
01
fb
09
f3
f7
f7
f6
f9
e9
00
fc
f4
f3
19
0b
0f
0d
1f
fd
fd
fc
fd
ef
ea
fb
fb
f0
fa
f7
f9
f3
06
01
06
03
ee
13
27
00
fb
f8
0b
02
02
fb
f3
f9
fa
f2
fe
00
03
fc
fd
fb
ff
17
02
e6
f2
f7
06
f0
fa
02
f5
00
f1
fa
03
03
f8
fd
f6
f0
f1
e2
12
ec
e3
f4
f8
f5
07
01
02
0d
fe
10
02
f7
f9
0c
07
fe
ee
f9
0a
e2
00
08
fc
ff
04
fc
13
0d
0a
f0
f5
de
ef
f2
f7
fb
ff
fe
0a
f6
06
fc
09
06
0a
f8
0f
0c
08
11
ec
f0
f3
f2
fc
f9
f2
ef
13
f9
02
01
0c
03
01
19
15
16
11
15
02
f7
f7
f2
ee
ec
e9
e9
03
0e
08
12
0a
14
0f
1f
22
16
09
f8
fe
f2
f0
fa
f8
ff
f3
e1
f4
1c
16
17
14
17
1e
38
29
17
09
f3
ef
fd
fe
f8
06
fd
fe
de
f9
1e
1b
16
0e
1b
1b
24
13
12
0a
07
fa
f8
fc
f8
f2
de
e3
09
ff
14
0c
ff
13
28
2a
1b
05
0d
01
fd
fc
f4
f7
04
ee
fb
ef
0d
07
04
f3
f8
10
07
14
05
10
0f
17
08
fc
f2
f0
ff
f4
e3
eb
ec
00
ff
01
ff
05
0d
0a
ee
28
05
22
40
0b
00
09
26
40
3b
32
10
10
05
0a
00
13
00
18
0b
53
11
5a
34
ed
e4
f8
1c
17
20
2f
13
06
01
20
25
36
4f
22
1f
3f
33
52
1e
04
fd
ff
17
f9
fe
2f
f3
fb
21
f7
f2
01
2b
15
01
41
1b
20
f9
fd
e5
e3
03
f0
f5
0d
fb
0a
11
03
f2
21
2a
32
1f
fa
fb
fc
13
01
f0
e9
fa
0c
f7
0b
f5
0b
0d
f4
11
22
0e
2a
fb
05
16
0c
1e
eb
fc
e5
03
ff
f7
fe
ff
f8
02
15
12
10
00
02
f5
0e
0b
0e
05
f0
f7
e8
f1
ef
fa
08
03
ec
0b
01
09
fd
11
19
08
fd
0d
11
f0
f5
00
ef
f3
ea
f4
02
f7
eb
04
f6
08
0b
0e
01
09
f9
07
00
04
05
14
dd
ec
e7
02
ff
fb
fe
10
17
10
0b
fc
09
02
09
fd
0c
15
fb
f1
e8
ea
00
03
0a
04
0b
1f
fe
0a
0d
0a
16
ee
01
1e
0b
fe
0b
08
ef
f5
04
fc
08
05
f2
0c
f9
20
16
03
0c
f0
f4
00
1c
1a
0a
09
e3
f3
f4
fa
f6
f9
f0
14
06
06
0b
04
f9
f9
00
fc
ff
e2
20
e1
e9
ff
ee
f8
fe
ea
ee
07
08
03
11
12
0c
18
12
08
ed
0d
f4
f4
e0
f3
e1
03
f9
ec
eb
fc
0e
f8
0f
ff
f6
05
fe
f2
02
06
f5
ee
f0
e5
f9
e8
e1
e4
e1
f6
f8
f0
05
0e
03
e6
f5
fb
d4
f3
ef
d6
e6
fa
fe
f4
f4
f8
fa
e4
f2
f3
fd
f9
20
23
0b
06
e9
d0
00
f6
fa
00
fa
fd
02
06
f7
f2
e6
08
eb
f7
f0
04
fb
09
f4
e7
0a
0d
0e
16
03
00
07
06
f9
e6
e7
f0
e9
f3
0f
14
06
fa
fb
08
fe
1c
10
1c
05
0b
0f
fc
01
f8
f0
08
0a
10
11
f9
ea
f6
f8
09
0b
15
03
fc
05
18
1a
0e
20
e2
f4
fe
18
21
1e
fe
01
02
fa
f6
0a
fa
02
fe
22
07
0f
18
2b
e4
00
20
28
19
0f
ff
00
fb
00
03
02
05
f9
07
16
04
00
fb
15
e6
f1
04
0c
0f
f7
f8
f6
f0
f0
f3
fe
ff
f3
01
02
15
23
08
09
03
ff
f5
ef
f2
10
f5
f7
ea
03
fd
fc
09
0c
06
0b
15
36
26
29
e2
f7
fc
f9
f4
f9
03
f9
f4
01
fd
06
03
0e
13
0c
23
22
1f
0c
f0
f6
09
f5
01
f1
fb
ee
ef
f6
f6
f6
ed
0e
13
20
18
2c
33
f0
e4
e8
08
01
f0
f9
e9
f5
11
03
f3
d8
ef
24
19
11
1e
25
44
fb
00
ee
ef
f8
05
ea
ed
eb
fa
eb
fe
f7
0e
29
07
17
23
09
16
15
de
f0
df
e3
e4
f2
05
f6
03
f5
18
f8
f6
01
19
1f
0f
1c
2b
09
dc
e4
e8
ee
f0
09
ea
fa
02
19
11
0b
fd
22
23
0c
14
0c
15
03
f9
e6
e1
ee
f7
e7
e7
dd
03
1c
0a
fd
15
28
21
ff
13
07
0a
f7
fc
f7
00
ed
f6
f5
f2
05
11
2a
40
00
fd
30
1a
09
fe
06
ff
f1
ed
ed
03
0d
f3
fc
04
fe
0e
13
12
04
06
1e
0b
12
fe
fe
05
ef
0a
f4
f5
f4
ec
ee
fe
03
16
04
10
fa
f7
1b
1f
0d
f6
06
f9
fe
04
06
fe
ef
0e
f9
00
03
04
10
06
ef
f9
03
13
0b
f3
f7
e7
f1
fb
ef
f7
f9
ea
fc
08
f2
fc
16
09
08
0b
23
1b
f8
d7
d4
e3
e5
10
06
f6
03
fc
ef
e9
f1
17
02
fa
02
09
17
0e
0a
f5
e6
03
f8
f4
ec
f1
ff
fe
fb
f9
fb
fe
f5
fe
0b
11
f9
ee
f9
e8
da
e7
09
eb
09
09
07
08
fa
fa
f3
fd
fe
fc
ee
fb
ed
d8
dc
e8
c2
c9
f9
d5
e2
ef
ed
ff
fc
04
fa
0d
04
07
08
06
05
f2
f1
01
ff
02
17
d6
c7
ca
d2
e8
f3
ee
f9
05
12
05
f5
00
06
fb
e7
f2
17
16
2c
de
ce
fc
ee
f3
da
ec
f6
ef
f4
fc
0d
0e
0a
0f
05
02
12
fa
3d
eb
fc
04
04
fc
de
fa
f0
0e
16
02
fa
f7
1d
f7
fd
13
0a
15
4f
11
03
1a
0a
fc
02
08
ff
11
fd
fe
f3
00
fe
f8
08
09
0d
22
4c
04
0a
18
15
09
02
f6
f1
04
03
fa
f9
10
06
18
19
01
05
16
20
0d
18
11
1d
0f
10
00
12
06
f9
f2
fe
f6
fa
06
12
1f
14
21
2c
03
0b
0b
09
11
1c
22
0c
06
00
0c
fe
20
18
17
15
06
06
fd
0e
f5
0c
11
27
25
26
1b
25
1b
0d
13
14
0d
0c
03
03
0f
16
f2
f1
0e
08
24
2c
27
21
24
1e
1b
14
17
0b
09
07
18
08
fe
0a
ff
fc
09
20
30
23
1d
21
26
1f
1c
0d
12
09
07
09
07
f8
07
f8
f6
ed
30
25
19
1e
1d
10
1c
28
0b
fa
07
09
fd
08
fc
f2
01
fc
ed
d0
24
15
1d
12
12
0d
0a
06
0e
05
fe
08
02
0c
07
f8
f8
fe
fb
ec
13
10
15
12
16
04
07
fd
fc
fe
03
10
02
05
02
f7
f7
fa
f4
e2
1e
13
17
07
06
02
f4
f9
f9
07
05
ff
08
fd
fe
0b
f9
17
ff
e9
09
06
fc
f5
f6
ff
02
f0
ee
fc
02
ec
fb
fe
02
f2
f0
f0
ed
fe
fe
f7
f8
f1
fe
f8
ee
ec
f3
ee
f4
ec
f4
f9
00
06
f6
f8
f2
fc
07
04
03
f0
f8
fa
f8
ff
f8
fa
fe
06
ff
02
04
05
fc
ef
10
0b
01
ff
f1
00
f2
fd
f6
fb
fe
fc
fa
07
05
0b
14
12
11
0c
12
16
03
fb
09
f6
f3
07
f9
f2
fc
05
08
07
02
11
15
0d
19
26
0b
fc
e1
f6
e4
f1
00
04
fa
fa
fb
03
05
12
06
11
11
17
26
15
15
0f
2e
2e
24
39
2e
38
40
51
5c
2e
f5
f5
f0
f0
d0
c5
fe
15
1f
2a
27
19
19
13
0c
fa
02
20
1b
f4
08
e8
fd
f4
e8
e8
10
1a
1b
32
07
05
04
f2
f0
f5
c8
d7
f4
f4
16
f8
fe
19
15
29
09
09
15
07
f1
cb
dc
f0
e0
f2
06
f0
09
03
08
2c
ff
03
20
0a
f1
1a
0b
05
fc
f4
fa
f0
16
00
11
05
1d
0c
0a
05
14
17
16
fe
05
08
11
0e
d6
dd
db
f2
0e
eb
fa
15
0d
f7
13
03
fb
01
f4
03
03
fc
02
17
ed
03
f6
ee
f4
f4
f4
f6
fb
fc
1d
04
0f
e2
00
ea
00
f0
fe
04
02
e5
db
0f
04
ec
db
e0
eb
f4
10
01
ff
f8
fc
fd
10
f9
0f
05
fa
d1
f0
ee
fe
0b
df
e5
f2
06
04
1d
ff
f1
eb
f9
06
06
e9
04
f7
f2
f4
f0
f7
f1
e8
e2
ee
11
26
f1
f0
14
fc
fc
e5
ea
e7
01
07
f7
ef
e4
dd
ea
dc
e4
de
14
04
df
db
00
f2
eb
eb
fe
ef
10
f5
fe
e4
de
f3
d8
df
e6
d1
fd
fb
e4
00
02
f4
fc
fe
14
f7
12
04
ee
f3
f3
f0
e5
e4
d7
d5
ec
0d
ef
05
ff
f6
ff
00
0e
ff
0c
fe
ee
f8
e1
e9
e1
d1
df
e9
fb
ee
fe
02
f7
0e
05
02
06
09
fa
f9
e8
00
ef
ec
f7
d5
e2
10
00
06
f7
fa
f6
fc
f9
0a
fb
15
f9
06
fb
fc
00
f7
ec
c9
09
ff
05
1d
04
04
fd
fa
00
05
02
0d
f1
25
07
e9
f7
d5
d5
c7
fc
e0
e7
11
f7
fe
f1
05
05
fd
f9
e9
ff
12
0a
fc
f9
05
fd
f8
db
d6
03
f5
f6
00
f6
0a
fb
fd
f4
f8
02
12
23
0a
18
1f
e8
d2
ff
f7
06
fe
0b
02
06
0e
04
04
f6
f8
0c
16
ff
f9
2d
15
01
08
23
ee
ff
f6
0c
08
0d
12
07
06
f5
04
0c
c0
56
27
d3
d2
0a
a9
e2
43
00
ed
81
ae
62
bb
16
6d
f2
d3
b3
e3
24
c7
b4
d4
10
4c
5a
32
c5
fb
d2
3f
8e
5e
ec
3c
b0
34
d4
0a
09
0e
d1
06
a3
60
d8
94
5c
e1
c6
39
e9
69
cd
e2
0c
3e
29
04
f9
07
3d
c2
ce
cc
05
39
43
e2
5e
d5
22
4f
dd
2d
f0
ba
a9
3f
d2
4f
11
05
5e
1f
5a
0d
0c
e5
0e
f2
b2
57
51
f5
f7
9e
36
